node {
  name: "x"
  op: "Placeholder"
  attr {
    key: "dtype"
    value {
      type: DT_FLOAT
    }
  }
  attr {
    key: "shape"
    value {
      shape {
        dim {
          size: -1
        }
        dim {
          size: 8
        }
        dim {
          size: 8
        }
        dim {
          size: 1
        }
      }
    }
  }
}
node {
  name: "encoder/conv2d/Conv2D/ReadVariableOp/resource"
  op: "Const"
  attr {
    key: "dtype"
    value {
      type: DT_FLOAT
    }
  }
  attr {
    key: "value"
    value {
      tensor {
        dtype: DT_FLOAT
        tensor_shape {
          dim {
            size: 3
          }
          dim {
            size: 3
          }
          dim {
            size: 1
          }
          dim {
            size: 8
          }
        }
        tensor_content: "\361\327\370=\253R\220>u\233\242;\263\204\307\275\220\032\327<\304\362\360\276]\210.?=S\210>+\341\204;\024\373\014\276\364\010\355>al\\>\001\274\305=x\302\014\277\2101\204?X\311\025\275\002\325`?\362\377\336\275%f\251:c}\305\275K\215\006<h\207\333\275\274\027\027:\226\350\275\273t\2205\2750\232\002\276\037\334\030?\273\345b>PBE={\023\027\277\323~\203>\263\0062?\312\343\226>E\345\267=+\247\205?\004\222\017\276\265\3221\277\344\335\365\276\212\004\237>\306\327\227=\332\'\032?\361\241\304=\037\270\036\275S\225\215\275=\302\310\274B\225\006\276\035\227\261\274\t d\275\236R3>\215\2571\2765f1\275\312t\353=D\344\210\276q\341\001\276~\344\265=\324\273i>\230\377\224=\346\325\000\276\350K\220>\275\005\340\275\0107J\277\311U7\275\347o\333:\2523\211\275\006\207?>\225\234\'\275\327n\035>\037\3548\276O\242\022\277\303S\273>\221\327e=^*\314\274"
      }
    }
  }
}
node {
  name: "encoder/conv2d/Conv2D/ReadVariableOp"
  op: "Identity"
  input: "encoder/conv2d/Conv2D/ReadVariableOp/resource"
  attr {
    key: "T"
    value {
      type: DT_FLOAT
    }
  }
}
node {
  name: "encoder/conv2d/Conv2D"
  op: "Conv2D"
  input: "x"
  input: "encoder/conv2d/Conv2D/ReadVariableOp"
  attr {
    key: "T"
    value {
      type: DT_FLOAT
    }
  }
  attr {
    key: "data_format"
    value {
      s: "NHWC"
    }
  }
  attr {
    key: "dilations"
    value {
      list {
        i: 1
        i: 1
        i: 1
        i: 1
      }
    }
  }
  attr {
    key: "explicit_paddings"
    value {
      list {
      }
    }
  }
  attr {
    key: "padding"
    value {
      s: "SAME"
    }
  }
  attr {
    key: "strides"
    value {
      list {
        i: 1
        i: 2
        i: 2
        i: 1
      }
    }
  }
  attr {
    key: "use_cudnn_on_gpu"
    value {
      b: true
    }
  }
}
node {
  name: "encoder/conv2d/BiasAdd/ReadVariableOp/resource"
  op: "Const"
  attr {
    key: "dtype"
    value {
      type: DT_FLOAT
    }
  }
  attr {
    key: "value"
    value {
      tensor {
        dtype: DT_FLOAT
        tensor_shape {
          dim {
            size: 8
          }
        }
        tensor_content: "\030\027\241:|\\\347=u\010\345;\346O\322=\247\351\261=6\033k>\221\'@;\0214};"
      }
    }
  }
}
node {
  name: "encoder/conv2d/BiasAdd/ReadVariableOp"
  op: "Identity"
  input: "encoder/conv2d/BiasAdd/ReadVariableOp/resource"
  attr {
    key: "T"
    value {
      type: DT_FLOAT
    }
  }
}
node {
  name: "encoder/conv2d/BiasAdd"
  op: "BiasAdd"
  input: "encoder/conv2d/Conv2D"
  input: "encoder/conv2d/BiasAdd/ReadVariableOp"
  attr {
    key: "T"
    value {
      type: DT_FLOAT
    }
  }
  attr {
    key: "data_format"
    value {
      s: "NHWC"
    }
  }
}
node {
  name: "encoder/conv2d/Relu"
  op: "Relu"
  input: "encoder/conv2d/BiasAdd"
  attr {
    key: "T"
    value {
      type: DT_FLOAT
    }
  }
}
node {
  name: "encoder/flatten/Const"
  op: "Const"
  attr {
    key: "dtype"
    value {
      type: DT_INT32
    }
  }
  attr {
    key: "value"
    value {
      tensor {
        dtype: DT_INT32
        tensor_shape {
          dim {
            size: 2
          }
        }
        tensor_content: "\377\377\377\377\200\000\000\000"
      }
    }
  }
}
node {
  name: "encoder/flatten/Reshape"
  op: "Reshape"
  input: "encoder/conv2d/Relu"
  input: "encoder/flatten/Const"
  attr {
    key: "T"
    value {
      type: DT_FLOAT
    }
  }
  attr {
    key: "Tshape"
    value {
      type: DT_INT32
    }
  }
}
node {
  name: "encoder/encoded_vector/MatMul/ReadVariableOp/resource"
  op: "Const"
  attr {
    key: "dtype"
    value {
      type: DT_FLOAT
    }
  }
  attr {
    key: "value"
    value {
      tensor {
        dtype: DT_FLOAT
        tensor_shape {
          dim {
            size: 128
          }
          dim {
            size: 16
          }
        }
        tensor_content: "\013\007]\2753G\247\276\326\255\017\2778\334\315\275^\255R?\243-S\276\033C\337>}\214\231\276o\367B\275\022\252\210>\361\351E>\373\374(\277\332\000y?\341@u\277\234\177\273=^Il<|P??q\203p\276\333\371\233\277_\261m=\351\035\347>\240\207\214\276A}\016?\335\245\216\277\253\207\255\276pk5?\003H\317\276\010\262\006>o\244\344\276\345\031 >\025\333\242\276\017r\212>\264\016\232>\025\312\374=w\214\226=a\206\020\276L\214\356>g$\034\277\236]\233>\3661\342=\204\013\333\276N#\016?\342\250\303?\332\322N\277N$\211?a\324y\275\240\340\231\276,\357\035=\032`\005?\010\326\221>\037D\300?\341\235\374=/%\262>y\331\214>\320F\303\276\323Y\360>\274\345\371\276\022\322\363\276\361&\005\275\211\275X>\330+x>\377\001\251\275)(\302\2753r\351=<@\361>\247\201\031?\360\343\342<\027\237\272\274\266Xy\276^-\262\276\216\362M>c/\322=]u\247\276\274\021\316?\024\350h?\310mL\2770\033?>\224\005\004?\245c\246\275\343]0\276\021\263\022?<\035\334=I7\022?\030\344\344\276\243\226s=\002\021;?w\030\037>\005\0033?\252\221\005\277\343\372\272>F\n\305?\032\354\250\275\353\005\021?\314j9?G\255\335<_:\010?b0\025?o\265\204\277\252\256\025?\036R\306\275}\023u?6\243\353\276\035\314\036=\312B#\275\037p/\276\236\364\t\277tD\000\277\333PA?q-\313>D\330x\277\334A\t>\"\020i>\255\356\225?\210{/\277\325n\210\277\303a\364=\234\002M?\254\302\006\277b\007!?\242\367\322\276U\223\372\275:\353\265\277\332\312\177>Q-N?A7\252>\256\334\361\2760\024\247\277\017\034\352>Ss\032\277\247o\034>\306Hj\277.\306\263\276\240\311\357\275\342\265\027\277l\215\030\277\236\022\241\276,\364\355?\021T\350\276B\247$\277\333\246\232\275F(u\2776\337Q\277\3719\356>\246_Y\277\355\370\257\277&\233\255\277\035\206*?J\374\320=\001\350\013?>\251r?\310\222\365>Z\263E\277z\271S\300\227\006\345\277\rg\260\277*K\264\277\251M\347\277Y{M\276P\344\233\276S\257^\276\210\353)\276w\225\277>\325y\257=\364\366\373\273O@o?\363(\000<\353\212\027\276\376\370\005?w8\252\276%\305\036?\217\254\000\277E\014\234\274\362\316:\277P\347\243\277a^\221\275\342\036\376=\251\004\036\300\014\025\241\277\t\233\306\276\375\320F\275\004)\240\276\r\017\315\277#\025.>\264\\\007\277\2071\037\300\211+I\277U\022\235\276\245:t\277t\371\246\277M\300G>\253\032\036\300m\316\030\277\301\257\003>\367\307\002?e\212\223?\036`0>\330\360\202\274\356\316\220>\252\235\260\276S\331\231> \275\031?\355\001\000?\212^z\276-9\334>\036\315\350\275\207=\250\2745\375P>l\305j\274CD\273\276Pq\265\2764\025\033\277_#\333\275#\321\253\276\334\256\032?ots\276\363\177\020?p\331\205\276\370$\037?\246\373\010\277\243f\223\276\017\200\245=\253\003\347=0\326\000\27614\242\275\361\325]\276\207\027\325\276m\377#\277\225\031?>\314\007\010?\236\302N\277\244\376T\276\336\225$?6\370\326=\005\344\232\277\371X\225\276\331\021\005=o\246\033\277\332\277\005\277\nFI\276]\213t>!.>\277\377\273 \276\251A\\>\032;}\275\241v\027\276\004\241K\276f\027\005\277*S\035?A\251\226\274\021d\313>\016\024E>\025\006\246\276\001\206#?m\276m\275\272gm>jG\200\276\266\023\355>\267\226\355\276[\205\017?\250\347->X\346\377\275\"\332d\274)D\344>U\274\323=\252qE?\224\3467\276\325\211\024>\353\370\202>\215\255D>\355\205\315\274%\263,\2768!t\275\0303\210>\372\326\225\276\200\315\236\276\275\3578>Y!\275\274\217\013\244<\252\246\244>\375\007\274\274\230ZC?[\242\232>}\030x\276\304qf\276V6\213>f\036e>\336\260\337:\000\016\260\275h\326y=%`U\276\374C%?\037\202*\273\361\007\375\276\003m\200\277\356\214\352>\261\322\205?\007\232\221\277\256\335$?\313\034\364>\025\364\326>T\331P\277\221\315\212\277\037gw\277\376\365\\\277\'J\243\275\2459\205\275\010\241n?a\210J>{AG>\272\206T?\347\305\r?\2130\'\276\001oR\300\016\241s\277\017\210\020\277\205\r1\274\333\203\027\277b\304\206\275\366*\222\276)\374\260\276\206YY\276\2215]=5\201\206?\241\216P;\314R\t\276\343x\000\277~?\247\276\243\216=?6\006\355\276\271DJ?&]\314\275=(\320>\034|\301>c\347\256\275s\244q\277\353\264\367<KK\225\276\241%\240\274\331\365\003=-\2648\276\351\306\321\275\337L\215>\231\215\305\276T\001\222\276-\014K<\034\314\027?\3760\'\2771\334\346\276\031s\204\277Z\263\231\276R\304\335\276\221M\326\275\3518\375\276R\316\255\276\263\371&\277\017\340\222\276\307\037\341\276%>\007\277lN\315>\213*\213\276\240c\354?\306:)\277\005\t?>\370\310/\276}\302\327\276\'B\350\276\3235\354=6Z;\277fu\357\274A\326)>\344\345\337\274\013\2166>\213\225\201\276;\r\303=\330\221\217>+\232\025>a\255d?\244\333\211>t\314t\276\206\334\363>!@\307=\277Oi=\323F\223=\245\323\221=7x4\277\177\260.\274\224qV>*\244\343=k\247\216=!\016m?_\332M?J\274q=\315-\342\277Jt\263\277`\'n\276\\pa\276\300\325\335?\034\347\357\275\306\016\020\300\324\337\034\277\n\225\204\277\345\210#\276\267r\001?\206\354o>\306\002h\276<\020(\277\215\247\266>W\005S\274\366\325\220;&Y\221\277\245Q\007=\2573\017?37m=\236\356\372\274\371>\375\276\001O\372\276\322\003=>\267[\003?jf4\277M\204\270=\227+S\276\210c\014?\013\212\251?\027\247\252\272G\277\372>\"gG\276C\267;\277-\263\331\276p\301S\276~\240\022\277\013z%>\036[\330\276\003\250\305>\371\"\274;g-\244\276>0\001\2762\344E>\250=?>\1774u>\037w\355>;+\320\276\372|\003?\324\177\032\276\235\263\323\275\370\264v\276d^\255\2755\364Z\275VS\252=\3632}>\262JJ>Hc\032\277\"\337\024>Waf<\216\354\177?q\177\373=Hl\372\276\264\003\006\275[\251\251\276G\355`\2778\257\354\275-\201\r>\024\261\005\276\234z\001\276v\240\310\274^\031i?+I\006?\315\302&>a\020\033\276\305`\374=\253\217\216>#\265,>\371&\\?A\216\034\277\313\250\204?\334L\236>\207\034;\276\' U?\314%\227?\031\327\024?-\032\224?\232\217j\277+\356\003<\266\262\277\276h\322?>[\360\346\276\"\320\242\277\365!\242?\024\371X?\236\020\262\276c\256D<\221\352\017?_,L\277G]D\2777U\037\276m\3628=,\244\332\276\000]%>\025C\331\276*[x?`i\241\274\361z<\277kS-\277\266\213p?;\203\375>\373#\356\277\276xI\277\231G\326\276>X\030?g\261\261\277\346\337S>`\005\313\277\233\253\006\277\177q\322?\221\221+?\207\211\314>\000O\335=\022\365X=\275\262\326\276\031)\227>P\347\200\276*\300\245\276y\331 =\n\303a<\355\016\014>\315L\317\276;z\251<_\305\003\277\261\311f>\275\277$?\263\377{\276\336=\211\2772\320E\275\275\262\234>\234X\210=\350kF\276wUi\276I\000Z\276R\331\033?\205!\254>\337xI?\206\321\365\275i\237\302=\203r\250\276\026\370u>\"\rB?\304l\347>6\314\362\274\272U\307=B:9?\206\010_\275\374\254\227>`*\221\276\034T6\276\003;\332\276Q\271\343>f\205\300\277\244\000\373\276\241\321f\276\252Pq?%\233\"\276\303\344^\277$\364\273\276b\343W\276\226*\023>?\335\251>\254\261\\\275#\246n\274\270\215\014\277\225\211}\276\340X\336\275\027\311\231=*\\\004\277d\020m=\245k\001>\354o\224>\311\372b=\027\217\033?\317u\212;\200\336\334>\331-]>\370*\023\276\313\222\272=@j\300\276\361f\236>~\364\222\276\310\317\351=+eQ?j\327\260\276\350\234\010\277\242\026\311>\306\342\227>\241\213H\276Yo\274>\250w\023?\260c\325=p\355\037\276#\365\254\275\262e/?v5\311<\337x\374>=\351q\276XY\021?\361%\033?\261\"\020>Qs\335>\322\314\"?\336G\236>s\315\243>HH\004?p\310\245?Xk(\277\014{\211=79\341>\230YE\277\316\263\317>V\271\006\277U\343\330\276\037\027\260?c\'\031?\333\305\007?}2+\276\036^\030>\202\316h\277\r\226`>E\266\311\275\263\367r>/By\277\336X\002>\261,]?\027\236X=q\310\374>\264\201C\277\2632\017<\030\031\200\277\352\274\201?\231\314\350=c5\251\276\240\355\t\277\235?|>bx\262>X\245\201\275U\307\027\276\246\312\317?\207w\300\275V3\226=)\001C\277\2574\302=r\373\002\2762\306\206\276\2300\313\276\t\211\264=\010.\203?7\373)\277\261CO\2760\205%\276:C\206\276a\306\221\276w\217_=\206\362\212?\302x5=\333\004\357>S\004:\276\251W\361\275f\203\025?\032\367\350\276~\346J=\325A\245\276\201\370\301>\362I\211>t\365\003=[\256+\277\306%\333>K\372]\277\000\320\375>\342\217\357>\250=\344\275oW\'?~\260 \277s\302\205\2765\350@\277\235\267\313<\034\212\234\277\323:<?\355\"\300>\202~\034?.\307\340\275\232\312!?\260\223\272>$y >\340z\315\275/R=>\000\364\343\275V7\336\275\363Y\314\273l.>\276um\020\277\345\2124\276\021>\016>\236\310\000\277\240\366a\277\002{\301\275\345^\010\276\263\343\356=\023\271\004\277\272\375\257\277\310\207;\275*\244\201?W\260+\276\363\354~\275%\225\333\276\023F\034\277Y\031\213=\305\205.=\000\252\337\276m\024\343>\037\300\336>\235\240o>q+\334>\244\233\032?\t0\266=\210\340\343>a\365\033?\034f0?%\314\003\277\260\026\237\276N_T?\264\376\321\275\317\2140?\324\332\261\276\330\007\213>c\013M?T\326\251>f\3341?\200\316\375>\326\313\343>\305\247\032?\355C\003\2752\2360?\360h\240?j\322r<\314\370\"?\010\276\272\274[\242\240\274\021\371*\272\365\271\016\277\027\000@?E\300\t\276\220\336\000\276\031,\327\276`\353\360\276\350\356\233>\203\276C=\253S\375\276\036\211H>\230/\311=\253\240/=\305\336\307>n\2308\275~\321\346\275\372T\215\275\201g\212\275\303\331\\\277\324\213\202\277\013\226]\276\001_\246\277\240\270G>\345\361\"?\343\240\300\274WG\357\276\006\325\024>9\3662?j\2118=\261)a\276>\3407\276\3760\007?G5\306\274Y\223\320\276\243l\212=4\372\370\275\035}y\271!5J>\221\t\205\276\337\220\201\276^\331\016\276\307K\026>\267n\032\275\264\337\362<\343 $>\215\215l\275\376=j\275\t\2400>/\370\304=\323\334\344\276\373D\240\276\212\355!8\337\374\000?I\246\240\276\246\306\354\274\216%3\276\244\206\216\276\237\237\001\276\304dD\275J\371\272=\265\001\203=|\"^\276T\3470\277\371mW?\253\264\370\2762\306\r>\"\257\320\274lD\303\276\240U\207\276\000,b>\221:Y\276\375e\372>\352UU\277\221\341\316<r\313\004?sg\220\275\224\300\274=|\213H>\270\231o>\026\214\243=\335\216\325<\340e\204\276\332\236\014>\021\231R\275\272\264\200\276\302\204\364=\2176]>j\013\255\275\200\035\217\276\027<\317\275\260\216\253=b\305\264=\313\241;\275(*%\275`.b\276\223V\311\275\243\202F\276&]\257\275\270\335\265=\037\367\334\276\002\313\303\276\237X\275>\210\314.>\0179I=HD\024\276\2355-?\267`\320>\270\326\022?\271\024\213\276pl\231>r}\010?q\226\360\275H\314\006\276\364\313\377\276\220{\262>\216O\010\276\3365X>\270m\030?\035\220m?\314\001\362>\\^_?\330\303\243\2761I@?\233\330\251?-W\327\275\024\017\213\276\347\257+\275:\243J?r\005\314>\347e\313\276 \334\334>k\273<\277\333\314\363=V Y<?\361\263\276\275\353\033\277\244\367\313\276\267\372\200?&o\r>\231$\017<\003\340+>\327\032\037\277f+\312>@\005\227?\032\337R\277\005\327a>\r\211\017\277=\0277?\013\2524?[7\231?\362\225\030?t \227;\261\253\374=\302\250\243?\010m\274\276\340@%\277\357\265\">ov\233>xW\230?U2(>\314:\254>\302\264\244\276\"m\314?\366\324~\277\335\013X<\235\004\251\277\376\014\232\277w\375\215\275\337\227\221\275P~d>\251T\261\275\031[\035?\376\306Z\275\010\033K>\265\245\247>\035\243\326\275lb\226>\0235\004\276L\307T>Pt6\276q\257\334=0\030,\273i\332\034>\273\272r\276\351\246\330\276\346\3032?8g\214\276T\226\007\277\024\007\010\276\004/\005\2771\023\212\276\231\240j>\374\004\334\276\311\352q\276\'\374\227?v.\366\276\032K\177\276&\213\022\277\263B\'\277\007\211<?X\325P\277\307M\375\275\033\241];T\266+\276\332Ik=\033\3300>\303\345\375=\274\306\200>\316\334\374\276S:\027\277F\270G\276\246\304%=\\W\327\275o\261s=P\264\227\274\346\210\331=I\t`\276\312\026\264?\330kI\276Q;\002\277\352\266H=\212P\032\276kf\265>\3353\217\2775\325\001\2766\344_\276\351_\261?\370\037A\277S\311x\275\016y\257\275\013\362\305\2756\025\360=\027\025\224\275J[\244?i\243\264=\261v5?\263\303\001\277.=\230>R-\317>\352\312,\2773\200\225>o\372\007\277\377eA?\254\323\301=1\003\022?\302\n/?;\020#?\376\372\354>d\320h?<-\215>\"I\214\2754\246\016?\212(\224<\223z\224;\037\246\216?\3621f?\362\370\360\276Q1*\276YO+\277\251e\246\276c\360\000?u\223\025\276\0241\354\276\253e7=\252{\024\277\324IJ\277\243\356?>\315`\205=0\376\016\276\033gY>\002\275\330=V\335\013?\366B\026\277\336\216\252>i\257\215?\326\304E?\360P1\277hr&>\230\376\017>Y\014\304?\237\317\300\276\304\023n\27696\021\277\302\217\272\276/\376\355\275\320J\200\276\304\013;?j\242\004\276\312}\250\276\364\000\264\276\353\2432\277\255b,>\311\374\333=\3652\036\277p\027?\277 :T?\311\207\305>\331\233\016?\252J\322<\2730K\277S\020%\275\375\016A\277K\375\025>\300\305\260=\342\035\221\277\305\331)<{j\377\276mu}?\215<\252>+\321_>\3210\220>\003\313\244\276(\246\310>\364*\030\277\302\014\307\276E\2079\275t2D\275\260\\\201\275\341?e>\2336\212=o\023\010\277 @\242\275W\320V\277\025\341\364\275Te\211?\t\321\220\275\334Ub\277$}l\274\2265\356>\222\206_\275=C\360>\267X%?:\026\271<\3256\352=#\212\261\275\237<\002\276\310\276\013>\207\232\301\276deL?\020\333\361>\363\301\206\275\016\"\237\276\303\226\221\276s\220U\2768\tK>-V\005\277\356\347\251\276\030n$\272aL\263=\003\001!>\362!\030?\030\030\233\276\254\026\240\276\340\177 \275\326tQ\277\276\333&\277?\224\332>\201\243\315=\016\362\265\273w\025\207>}0\n\276\215\010\260\276a\356\016\277\207\030\020\276\366R\327\275\372\313\211>O\336\261\274V\203Z>B\t\032\276D\210\206\276\037\220I?|3\365\275#m5?\024p\002?G0\"?)o0>\tK\'>\002\271E\276\027\307\344\275h\242\177\275W\275\356=\342\034G\2777\027\n\277\321\000\353\275\021\230\003\276ym\304\2761\337\324>\372w\323?\212\007\322\276x8m\277\333\034%\276\026\2645?)$\002?K\217k?)3a\277\350\312\235\276\336at\273\217\'1\277\223\352\273>\0246\341=\222\201K\277\336L6\274-\320\216?\031\244\024?2\034U?\221Y\221?A\301\211\277k\236\235\276@\257\244>+\037\026\277\335\013\377\276\266\225\325\275\031\257\203=\347\375+\276\013\250\375\277l\020\034?x\034\273\276b\242b\276\263[\270\276\224\255\264\277\342\317@\277\343wf?\322\311\206>\375L>?\362}\202\276+\264W\277\206\233\221\275\232X\223=\263\342\000\276\364\276\224\276\023:?>\335\200\025\277\026\247\336\276\344\327\223\274\326\244\214>\000<\331\276\222\244!\277\264\333\331\275\307\000\361\275}J\374\275\363\333\303>\017\201\203?K\331\327>U\236\253\276`zZ>\331\227\231\276R\260\000\277W^\031?N\300<\276\377y\206\276<\345\340=h\215\023\277\314:u\276\375zK?\177\367\n\277\213\233I>\t\"C?\177h\374=\237+\020\277\210J`>\340\024\r=m!\021>0\204\320<\331e\206\275?{(\276\271#\356\276\253K;\2760\331\355>v\260V\275\344:h>]\321\346<2JL\276\221W\343=\311\002\313>;\300\366\275\230\265K>\221\326\320\274\270\243\250<\206\2477\277f\242k>\273\272\273=|\207\363\275\316m\230>\306\241\233\277(\355\353=VU\271>\201i\233>\331\210\241<\373\206t=\3529\200?\302a\353\276\345\267\211\276i\221\325\276\007\251\017?m\270\343>H\377\351>\020\270\301>\303\324\n\277\t\360#=a\243\200>N,\002?!m\033?}\256=?Io\370>\370D\026?\245\"\203\277*C\277\276i.2?\330\373\010>a\013-\277K\216v\277\017n\001\277\200\036m\276\251d\n\276Og\224\276\371P\013>\352;\000>\026\313\220>\375\034P>o\006E?v0\007?LQ\271?h3\014\277=\211H\276\256\032\014\275\265\337\265=\220R\267\276\036\224\024?\002)\250>\023\357l>\265\"\337\275?\031\344\276\322\243\265\276\202@\201\274\252qh\276P\2653?X\276\260>\337c\007>m2M\273\342]\253>i\210\252\275\030\377o\276\240nh>\0141 \277\241\020\377>\261/D>\304\210C>v9\353>e]\211\276\325<\345=ki\262?\230\355\t>\256`\\>\371\203\024>W\365n\276U\177\351=2\313n\275\347\373\233>\260\375\027>,7\371=NbG\275\324\332\351\276\232\214@\276\022q\200=H+\317\275\223\341\177=\333\274\225\274\001\353i\276\023:&\276\255q\216>R\026\020\277P\271\277>\376v\315=\247\2375\276\245a\204?\205\277D\277n\235\001?3\275\031?,tK\276\235K<\276N-\232\275\316\251b>+\232\255?\212{\306\276\244$\035>\227\216\353\275\354]\212\276.\347;\275\263\305\027\276(\033\233>T\260\032=\210z&>\373R|=W\005\365\276\224%g\276T\361\227\276\\s\242\275\230,\214=\245\217\345=\306*:\275a\\\276\275\202\214\\>\262\262@\276\264\355\300=\271(\221\275\227v\016>E\rR>`\3669\276\034A\r=\364@\223\276Q\245\254\276\002aX=4\tU\276\232O\263\275\367\016\321\275T,\001\275\2329A\276}A\021\276\355\032#?b\343I>\240E\026\277\272\220\361=\372\360\243>\207\003\354>;\0379?\243\2405\277\004\314\032>\033\237\021?\303B1?\337e\017?\276\257\021?2\227=?i\256\241?\215\231*>f\027\332\275\265\361\350\2766\256\r\275\021\010\002>\n9\224?1eO\277\333\255\030\276Za\010>\261I\211=\010k0>\244\013\230\276Q&\031>\306\021\201?\025-\035\276pA%\276\306g\000\277\032=\244=}\376\007?O-\336=e\3563>\303\037\323>\323\377\221\277F\006\003>\355\326#=\350b\026?\371\310\220\276\274A\373;\224\005%\276\305\253\023?\n\243\352\275\013\353\251\276\224\034\240>\360\230\220>R\270\311>\3271\275=\000\005)=\356\254@>\250\226;\277\252g\014?\271\225$>x!(>\335\373\026?b*+\276\307\024\200>\323\346\242?\010\262\302>.KO>\211\260$\276\215\\`\275\341\312T>\336\210\030>I\264\212\275\250\001\247\275\226\212\270\275\232c\002>$.\357\2764\315@\276\217K2\276\244\246\347=\357\225\245=l\361\\>\201\026\225<\363\217\020=L8\255\275n\361\316\276A\222\n?\244\017\202\274\312m7=\212\215_?wVI\277\031\332\375>\347\031P?\340\373\037\276k@M\276\206\017\206>\362\266\372=?\202\314?\374b\306\276X\014\024>\265\324\377=\004M\222\273{Za>\345Zx<\370\010N>P\310G>\312\221Y\275m\366\244=\320\225x\276\270\017\376\275\337fO\275\3064f\276_Hd\276\357\273\002\274\255\352\036\276\210\307B\275`U3>\326G\246\275oP\026=\354\014\000>d\365\353;\341\3728>\271a2\2754C\'\276z\010\340\2765\2370\276\371M9\274\231>\243\276T .\276\023\n.>\000\360\216\276\3520\036>t\000\202\276\367P\"?H\303\342>H\033\t\277=W\">t\364\320>\235|\372>O\304\205?\315\306\030\27746r>K\260\024?\302\007\272>3\204.?\212\003K?\224\260D?1\266\242?\223\274e>J@r\276Xq\026\277\317g\301\274}6y>\244\342\226?C\274C\277\274\321$\274\353i\360=}\320\014>K\345\263>\264\013\027\276\337\027\224>\233\314\225?\251\312[\276~\'c\276\367\306=\277\374\334\277\2758\351\331>\010\372i=\265\006D=!\034\247>\317G\265\277\256\244\330=\304\010\240>T\001\031?\225W\017\277c#\022=\017X\225\276>\247\354>\226\006\346<\030\013\n\2778\023a\276C=\206?\267\000\360\276G0\330<\352z\032\276w\260]?\023\215\035\275E\026\250\276\203\3013\276Gw5\276\311\325\246<\341\325\312>!\263\343>\033ig\277\241#\355\276\313\314\261>\254[\232>\226\330\356>\325\2452?N)*>\2141D\275\333\253\326>\031\264\222\2764\212\360>J\t\355\276\267-\t\275M\3277?\370,\027\277Lg\330\276\375C\374\276Uq\313\274\026\263\365=&\243\310\277\277K\211?\232\340\325\276&\2239=v\032\300\276\322L\205\275\213O\034\276\241\356 \277\317\320\331\276\254Y\362\275}\332\366>\301\037\005?l>\316\276x\342j\276\275N3\276.\202\354>\223O\377>\260?\275\276\224\257\017?Z\353\257=\005\203\212\274\376\244a\275\377Hr\276\200*\372=\"[\201\276-\270\322\276\336\"\216<|(O\277G\222\203>fqt\275_,\253>r,\234>0}\244\277\262\366\202?\227=\235\276\224&9>XL\242\275\250-\017?\360S\016\277\312\331\022\277\364m\213\276\204S\246<\031\034\321=\246\002s?v\323\300\275\rk\327>\225a\324\276\022\017\r\276w,6\275\206]\r>\361ij>{~\021\277X\357\010?b2\247\275m;\005>\rs\231>\223\211\010\277\264\252\244\275f\031n>G\210(?\234\326\027?\255\300T?\033\241\365>\222\013\036?\254\241\342>\257\316.?\355\314s>p\350W=\013\201j\276$\261\303>\225r\016>D\355\264\275\237>\247\275/\273\014\277\037\355\004\277\032\2749\276\373\033\313?\222\256Y\277\270\332\244\276\243\237\225>O=\311>D\217\226?@\230\344><\363\337\275\346\347\254\276g\016\221\277\313\013R>\317\336\232?\222\232c\276\357\023^\277(\377\247?\313\305\240\277=\354\302>f\030 \277\332\266\036\276\2438*?\n\264\304\277\257\316\007\277\"\277\244\277\253i\006\275z\341\220=\275/n\277z\221\362=\363,&\277\225UF>5g0?&\374n>\352x3?\231M\203\277\030\377\332\274aR\t?\277b{>A\212B\277\344^\220\276\251\2463\275\023\'%>Z\211\031\276Cu(=\267V\260\275\270\375&\277F\037\310\276\267q\277\276\310\303\207<\201N~>mlG>\007 \350\274\215\000\366\276\266T\231>\3142\350\275s\223+\276\203\n_\277\365\241\255\275\340\000\005\277\276\022\370\276\253\320\r=\273\323\377\275\311;\220\276gLX?\246\373\342>h\303\366>Y\354]\277^\202\026\277\267%\371>\273\245*?\330zY?\247#F\276\347\013&?q\355Q>\213\243M=\006Q\006\274\311$b=Q\342\021\276u5\350\276y8\343\274\372\216\334\276\370\034\006>\231\327R\275\221\217\242\276\331\327z=\272S\206<J\033W\277\"\226\034\277\206\372K\277)v\210=j\\\232<\r\264\327\276\270\2209\276\221\0004>\240N\364\275<\033J?\025&n>\314\356\365>\222n\023\277\t\373\254>\245\030\030=m\036\307<\032\036\013?\255\031v>\007\342\013\276k\372\366\275\373\033\003?\345\270\350>ZU\020=\023n\020?N\031K\276\246!5?\320\310\206\274A;c?0\333\014?/\010\312>Y[\341>\357\370\350>\307\274\326>\305\342f\276\366\020-\275\236x\355<E\317\206\276\036Y%\277x\217\322=\274\031U\276\265\356\033\276|H\014?|2\241\277[F1?<q\304=\305\242\301\276\310J\324>\025\0215?\200\345\220>\353ha?\023\nr\277\244\274\234=G\0109<U\224U>Q\216\337>3\377\006>\330\272\351=\237|\177\276X\366m\277\216\267\006\277K_\276\275\352\367\244\276\351\275\202=\033:\265>\333\237\207>\251e\306=\314\005\203>\0225*\275c\030\355\275\372\333\210>\020yB\277\222C\023?|\347\235>\361\237\346=k\300\004?!\\}\276\341\365\014>\031\372\250?`U\266=\366\366t>>1\370\274\343\254{\276\001\277\247\275\016f\262=\305u\010>\276\025\020=\240.t>\304v\346\275\343I1\276&\002I\276\027\205r\276?\261r\276\214\264x=vQ[>\215@N\2761\030%\276`\303\261<~\232\014\277\302\004\255>g^\224\275\034\376\241\274f\276o?\375\220l\277o\200\325>\035) ?N\001\224\276\177tg\276\262]\212>\373\333\353>\363\363\327?\272\031\321\276\327r\231\275\337L\270\275\214M\235=\334\376\024=o\r\035>,\305\206>\245^\202=\270+9\275\236\003p\275\357\320\226\276z}g\276g\306.\276\300\315\321\274=\034 >\245T\302\275\317\336\247=\010\371\211\276\376C?>\211\356\230\276\247V)=\374#\260\274%_\212>\2013H>\324*8>B\205<=J\321\203\276]\265\001\277\362G\207=IW\253\276\264\350\017\276yB}=P\177\237;k\226E\273\265c\340<\371\213\006?Xp\372=C\271\330\276L8\305=\205_\024?)\0207>\233\323\210?a\361\021\277\340\021R>!\"\003?\277=*?\343\207\021?\004u\025?\302\3106?=\216\267?\033WP>\237=\331\276\377\234\206\276\016\344\312=\257\177\010>u\030w?W\250K\277b_\236=b\026\027>\021\311\355=&\310\320=\"\263\265\273\252\266\177>5S\203?\207]\243\276\356\356\232\275\267\355:\277\200\006\217\275\272\016\267>h\305X=\231\276\014>}c\316>\255\267\232\277\020\337\301=;\005\r>\236\246+?\374Q\302\276C\035\333\274\232\022v\276\033\244+?\252_\344=\177\303\333\276I\305o>\234\267d>3\262\232=/\201\212=\321]_\272\352\222\354>T,\027\277:\251*?h\331E=}\013\210>%\201+?\353v\341\275\275-\037\274G\312\224?\363\376\232< \227\307>F\332\275<\205\335\021\276\'\237\216=:,\n=\037\267\203>\344\275\271\275r\222\036>\034\317\273\275\350k\303\276@\247I\276\253\317\254<\017DJ\276\227\305\374\275;\315\233=\361\205\336=)\265c;\010\017\343=8\300*\277\346\257\215>\236\030\251\275\277f]>\264\277f?K\017v\277\343\202\244>%J\"?Z\200\223\276u7\002\277\342\371\346=\373\216\361>o\271\263?\3652\006\277\234\354g\275X\346\t\276\262\322H\276\274\262\361\275\346\010\332=\034\201\020>\300.\233=(V!\275\307\307\"\276\276\353s\276<z\315\275 \242\352\275\017!\200\276\236\321\334\2759D\325\273\253O`\276\002pg\276<\213\216<17Y=e\264\245\274\256o\214\274\2443y<o>\352\275\232pX\274l\031\363\275\320\036\203\276\364?\202\276\017*/<\006\245\'\276B]\023\275\317L9\276Q\351\245\275LFu\276yY\n\276\375\300X?\336\272\026>R\330&\277\271\016\240>\033\340\001?\335\027\230>gs\204?\031L\332\276~\336\003>\377\204\332>\341n3?Z\266\371>\326%\013?\330\371M?S\275\256?\302\312\324>:\221^\276\216Q\031\277S\306\035>\035/\204=\332,\210?\r\322I\277\265\3141>\360\276\032>\372B\251<\352^\256=\202\364\234\276\221\004\244>\013<\231?\267`\262\276\370f\300\275|E\371\276\303\240V\276n\261\000?B\361^>\377=\303\271\031\312\375=I\270\243\277\310\360\n>\247\272)\275\324pg?n,\272\276o*\177=\264\347N\276\202\267\302>\262,3\276\t\2757\276"
      }
    }
  }
}
node {
  name: "encoder/encoded_vector/MatMul/ReadVariableOp"
  op: "Identity"
  input: "encoder/encoded_vector/MatMul/ReadVariableOp/resource"
  attr {
    key: "T"
    value {
      type: DT_FLOAT
    }
  }
}
node {
  name: "encoder/encoded_vector/MatMul"
  op: "MatMul"
  input: "encoder/flatten/Reshape"
  input: "encoder/encoded_vector/MatMul/ReadVariableOp"
  attr {
    key: "T"
    value {
      type: DT_FLOAT
    }
  }
  attr {
    key: "transpose_a"
    value {
      b: false
    }
  }
  attr {
    key: "transpose_b"
    value {
      b: false
    }
  }
}
node {
  name: "encoder/encoded_vector/BiasAdd/ReadVariableOp/resource"
  op: "Const"
  attr {
    key: "dtype"
    value {
      type: DT_FLOAT
    }
  }
  attr {
    key: "value"
    value {
      tensor {
        dtype: DT_FLOAT
        tensor_shape {
          dim {
            size: 16
          }
        }
        tensor_content: "\332A0=\336\241\035\272\2744\020=4\212]<J\305]>\324Q >c\276U\275\230\021\022\275\251\377\255\276%T\237\275I*\346\275\261\331\216\275\272p\304=\240\210.>\240Z\000=z{\034\275"
      }
    }
  }
}
node {
  name: "encoder/encoded_vector/BiasAdd/ReadVariableOp"
  op: "Identity"
  input: "encoder/encoded_vector/BiasAdd/ReadVariableOp/resource"
  attr {
    key: "T"
    value {
      type: DT_FLOAT
    }
  }
}
node {
  name: "encoder/encoded_vector/BiasAdd"
  op: "BiasAdd"
  input: "encoder/encoded_vector/MatMul"
  input: "encoder/encoded_vector/BiasAdd/ReadVariableOp"
  attr {
    key: "T"
    value {
      type: DT_FLOAT
    }
  }
  attr {
    key: "data_format"
    value {
      s: "NHWC"
    }
  }
}
node {
  name: "encoder/encoded_vector/Relu"
  op: "Relu"
  input: "encoder/encoded_vector/BiasAdd"
  attr {
    key: "T"
    value {
      type: DT_FLOAT
    }
  }
}
node {
  name: "NoOp"
  op: "NoOp"
  input: "^encoder/conv2d/BiasAdd/ReadVariableOp"
  input: "^encoder/conv2d/Conv2D/ReadVariableOp"
  input: "^encoder/encoded_vector/BiasAdd/ReadVariableOp"
  input: "^encoder/encoded_vector/MatMul/ReadVariableOp"
  attr {
    key: "_acd_function_control_output"
    value {
      b: true
    }
  }
}
node {
  name: "Identity"
  op: "Identity"
  input: "encoder/encoded_vector/Relu"
  input: "^NoOp"
  attr {
    key: "T"
    value {
      type: DT_FLOAT
    }
  }
}
versions {
  producer: 987
}
